#include "weather_model.h"

// This file contains the binary data for the TensorFlow Lite model.

// To generate this file, you need to use the 'xxd' tool:
// xxd -i your_model.tflite > weather_model.cpp
// Then, copy the contents of the generated file here, making sure
// the variable name is `g_model`.

// Keep aligned to 16 bytes for CMSIS compatibility
alignas(16) const unsigned char g_model[] = {
  0x20, 0x00, 0x00, 0x00, 0x54, 0x46, 0x4c, 0x33, 0x00, 0x00, 0x00, 0x00,
  0x14, 0x00, 0x20, 0x00, 0x1c, 0x00, 0x18, 0x00, 0x14, 0x00, 0x10, 0x00,
  0x0c, 0x00, 0x00, 0x00, 0x08, 0x00, 0x04, 0x00, 0x14, 0x00, 0x00, 0x00,
  0x1c, 0x00, 0x00, 0x00, 0x8c, 0x00, 0x00, 0x00, 0x0c, 0x01, 0x00, 0x00,
  0x60, 0x0a, 0x00, 0x00, 0x70, 0x0a, 0x00, 0x00, 0x90, 0x19, 0x00, 0x00,
  0x03, 0x00, 0x00, 0x00, 0x01, 0x00, 0x00, 0x00, 0x04, 0x00, 0x00, 0x00,
  0x2e, 0xf4, 0xff, 0xff, 0x0c, 0x00, 0x00, 0x00, 0x1c, 0x00, 0x00, 0x00,
  0x3c, 0x00, 0x00, 0x00, 0x0f, 0x00, 0x00, 0x00, 0x73, 0x65, 0x72, 0x76,
  0x69, 0x6e, 0x67, 0x5f, 0x64, 0x65, 0x66, 0x61, 0x75, 0x6c, 0x74, 0x00,
  0x01, 0x00, 0x00, 0x00, 0x04, 0x00, 0x00, 0x00, 0x68, 0xff, 0xff, 0xff,
  0x12, 0x00, 0x00, 0x00, 0x04, 0x00, 0x00, 0x00, 0x08, 0x00, 0x00, 0x00,
  0x6f, 0x75, 0x74, 0x70, 0x75, 0x74, 0x5f, 0x30, 0x00, 0x00, 0x00, 0x00,
  0x01, 0x00, 0x00, 0x00, 0x04, 0x00, 0x00, 0x00, 0x26, 0xf6, 0xff, 0xff,
  0x04, 0x00, 0x00, 0x00, 0x0f, 0x00, 0x00, 0x00, 0x6b, 0x65, 0x72, 0x61,
  0x73, 0x5f, 0x74, 0x65, 0x6e, 0x73, 0x6f, 0x72, 0x5f, 0x33, 0x30, 0x00,
  0x03, 0x00, 0x00, 0x00, 0x5c, 0x00, 0x00, 0x00, 0x2c, 0x00, 0x00, 0x00,
  0x04, 0x00, 0x00, 0x00, 0xb8, 0xff, 0xff, 0xff, 0x16, 0x00, 0x00, 0x00,
  0x04, 0x00, 0x00, 0x00, 0x13, 0x00, 0x00, 0x00, 0x43, 0x4f, 0x4e, 0x56,
  0x45, 0x52, 0x53, 0x49, 0x4f, 0x4e, 0x5f, 0x4d, 0x45, 0x54, 0x41, 0x44,
  0x41, 0x54, 0x41, 0x00, 0xdc, 0xff, 0xff, 0xff, 0x15, 0x00, 0x00, 0x00,
  0x04, 0x00, 0x00, 0x00, 0x13, 0x00, 0x00, 0x00, 0x6d, 0x69, 0x6e, 0x5f,
  0x72, 0x75, 0x6e, 0x74, 0x69, 0x6d, 0x65, 0x5f, 0x76, 0x65, 0x72, 0x73,
  0x69, 0x6f, 0x6e, 0x00, 0x08, 0x00, 0x0c, 0x00, 0x08, 0x00, 0x04, 0x00,
  0x08, 0x00, 0x00, 0x00, 0x14, 0x00, 0x00, 0x00, 0x04, 0x00, 0x00, 0x00,
  0x13, 0x00, 0x00, 0x00, 0x6d, 0x69, 0x6e, 0x5f, 0x72, 0x75, 0x6e, 0x74,
  0x69, 0x6d, 0x65, 0x5f, 0x76, 0x65, 0x72, 0x73, 0x69, 0x6f, 0x6e, 0x00,
  0x17, 0x00, 0x00, 0x00, 0x50, 0x09, 0x00, 0x00, 0x48, 0x09, 0x00, 0x00,
  0x34, 0x09, 0x00, 0x00, 0x10, 0x09, 0x00, 0x00, 0xfc, 0x08, 0x00, 0x00,
  0xe4, 0x08, 0x00, 0x00, 0xc4, 0x08, 0x00, 0x00, 0x74, 0x08, 0x00, 0x00,
  0x24, 0x08, 0x00, 0x00, 0x14, 0x02, 0x00, 0x00, 0xc4, 0x01, 0x00, 0x00,
  0xf4, 0x00, 0x00, 0x00, 0xec, 0x00, 0x00, 0x00, 0xe4, 0x00, 0x00, 0x00,
  0xdc, 0x00, 0x00, 0x00, 0xd4, 0x00, 0x00, 0x00, 0xcc, 0x00, 0x00, 0x00,
  0xc4, 0x00, 0x00, 0x00, 0xbc, 0x00, 0x00, 0x00, 0xb4, 0x00, 0x00, 0x00,
  0x94, 0x00, 0x00, 0x00, 0x74, 0x00, 0x00, 0x00, 0x04, 0x00, 0x00, 0x00,
  0x26, 0xf7, 0xff, 0xff, 0x04, 0x00, 0x00, 0x00, 0x60, 0x00, 0x00, 0x00,
  0x0c, 0x00, 0x00, 0x00, 0x08, 0x00, 0x0e, 0x00, 0x08, 0x00, 0x04, 0x00,
  0x08, 0x00, 0x00, 0x00, 0x10, 0x00, 0x00, 0x00, 0x28, 0x00, 0x00, 0x00,
  0x00, 0x00, 0x06, 0x00, 0x08, 0x00, 0x04, 0x00, 0x06, 0x00, 0x00, 0x00,
  0x04, 0x00, 0x00, 0x00, 0x01, 0x00, 0x00, 0x00, 0xeb, 0x03, 0x00, 0x00,
  0x0c, 0x00, 0x18, 0x00, 0x14, 0x00, 0x10, 0x00, 0x0c, 0x00, 0x04, 0x00,
  0x0c, 0x00, 0x00, 0x00, 0xb0, 0x7e, 0x81, 0x8e, 0xe4, 0xe4, 0xba, 0x2d,
  0x02, 0x00, 0x00, 0x00, 0x02, 0x00, 0x00, 0x00, 0x04, 0x00, 0x00, 0x00,
  0x06, 0x00, 0x00, 0x00, 0x32, 0x2e, 0x31, 0x39, 0x2e, 0x30, 0x00, 0x00,
  0x92, 0xf7, 0xff, 0xff, 0x04, 0x00, 0x00, 0x00, 0x10, 0x00, 0x00, 0x00,
  0x00, 0x00, 0x00, 0x00, 0x00, 0x00, 0x00, 0x00, 0x00, 0x00, 0x00, 0x00,
  0x00, 0x00, 0x00, 0x00, 0xae, 0xf7, 0xff, 0xff, 0x04, 0x00, 0x00, 0x00,
  0x10, 0x00, 0x00, 0x00, 0x31, 0x2e, 0x31, 0x34, 0x2e, 0x30, 0x00, 0x00,
  0x00, 0x00, 0x00, 0x00, 0x00, 0x00, 0x00, 0x00, 0x40, 0xe9, 0xff, 0xff,
  0x44, 0xe9, 0xff, 0xff, 0x48, 0xe9, 0xff, 0xff, 0x4c, 0xe9, 0xff, 0xff,
  0x50, 0xe9, 0xff, 0xff, 0x54, 0xe9, 0xff, 0xff, 0x58, 0xe9, 0xff, 0xff,
  0x5c, 0xe9, 0xff, 0xff, 0xea, 0xf7, 0xff, 0xff, 0x04, 0x00, 0x00, 0x00,
  0xc0, 0x00, 0x00, 0x00, 0xc0, 0x67, 0x00, 0xeb, 0x3f, 0xb4, 0x43, 0xf0,
  0x65, 0x7f, 0xa5, 0xfb, 0xf1, 0x2a, 0xe3, 0x98, 0x29, 0xab, 0xeb, 0x9f,
  0x7f, 0x5c, 0x10, 0xc5, 0xd2, 0x81, 0x2b, 0x2a, 0xc7, 0xe0, 0x98, 0x98,
  0x58, 0xd5, 0x30, 0x73, 0x87, 0xc8, 0x15, 0xb9, 0x29, 0xd1, 0x5c, 0x9d,
  0x81, 0xb0, 0x73, 0xbe, 0x08, 0xca, 0xfe, 0x65, 0x46, 0xb7, 0xf0, 0x20,
  0x7f, 0xb5, 0x19, 0x26, 0x67, 0xd4, 0x3e, 0x2d, 0xfb, 0x7f, 0xed, 0xde,
  0xf8, 0x4b, 0x5a, 0x58, 0xae, 0xf8, 0x7f, 0x1d, 0xa0, 0xb0, 0xd7, 0x98,
  0x6c, 0x08, 0x39, 0xa0, 0x11, 0x24, 0xde, 0x12, 0x34, 0x37, 0xda, 0xb8,
  0x8f, 0xd1, 0x3b, 0x7f, 0xf0, 0x3e, 0xf1, 0xa2, 0xe9, 0x8f, 0x32, 0x99,
  0x47, 0x8c, 0x81, 0x68, 0xa1, 0x77, 0x18, 0x96, 0x93, 0x46, 0x7f, 0x5a,
  0xcf, 0x3a, 0xb1, 0xd2, 0xff, 0xcc, 0xfc, 0x6b, 0x75, 0xce, 0xd6, 0xfe,
  0x15, 0x7f, 0xe6, 0xac, 0xfb, 0xee, 0x37, 0x9f, 0xc0, 0x73, 0x14, 0x12,
  0x7f, 0xbd, 0x0f, 0x0a, 0xad, 0x18, 0xd4, 0x6a, 0x33, 0x19, 0xf1, 0x55,
  0x2a, 0x81, 0x58, 0x9c, 0x21, 0x38, 0xea, 0xdb, 0xc6, 0xf0, 0xfe, 0x08,
  0xc5, 0xee, 0xa1, 0x7f, 0xef, 0x94, 0x50, 0x6f, 0xa0, 0x7f, 0xee, 0xe4,
  0x49, 0x90, 0xd3, 0x74, 0xb8, 0xd8, 0x10, 0x47, 0x64, 0x31, 0x17, 0xcb,
  0x94, 0x7f, 0x0e, 0x32, 0xb6, 0xf8, 0xff, 0xff, 0x04, 0x00, 0x00, 0x00,
  0x40, 0x00, 0x00, 0x00, 0xa3, 0xe6, 0xff, 0xff, 0xdb, 0x05, 0x00, 0x00,
  0x00, 0x00, 0x00, 0x00, 0x00, 0x00, 0x00, 0x00, 0x53, 0x1c, 0x00, 0x00,
  0xe8, 0x0c, 0x00, 0x00, 0x00, 0x00, 0x00, 0x00, 0x2a, 0x0d, 0x00, 0x00,
  0xb8, 0xfd, 0xff, 0xff, 0x43, 0x05, 0x00, 0x00, 0xf2, 0x1e, 0x00, 0x00,
  0x3d, 0xf8, 0xff, 0xff, 0x3a, 0xf8, 0xff, 0xff, 0x48, 0x16, 0x00, 0x00,
  0xc3, 0x14, 0x00, 0x00, 0x36, 0x1a, 0x00, 0x00, 0x02, 0xf9, 0xff, 0xff,
  0x04, 0x00, 0x00, 0x00, 0x00, 0x06, 0x00, 0x00, 0xbb, 0xea, 0xd4, 0x2b,
  0xd1, 0xe0, 0xf3, 0x44, 0xe1, 0xab, 0x68, 0xd0, 0x4c, 0xd7, 0x39, 0xa6,
  0x54, 0xf1, 0x3d, 0x10, 0x85, 0xc5, 0x93, 0xa9, 0x54, 0x01, 0x9d, 0xc7,
  0xc0, 0x1b, 0xc8, 0xec, 0xb9, 0x0f, 0xbc, 0xfd, 0xad, 0xb2, 0xdb, 0xb9,
  0xcc, 0xb7, 0x56, 0x33, 0xf9, 0x83, 0xd7, 0x0f, 0xee, 0xe0, 0x8c, 0x0a,
  0x2b, 0xc4, 0xcd, 0x38, 0x65, 0xfe, 0x5d, 0x9e, 0x1e, 0x07, 0x81, 0x5c,
  0xfb, 0x29, 0xc2, 0x96, 0x6b, 0x36, 0x99, 0x58, 0xcc, 0x3d, 0x18, 0x0e,
  0x59, 0x11, 0x5d, 0x57, 0x04, 0xc5, 0xd1, 0x5c, 0x89, 0x08, 0x41, 0x6d,
  0x16, 0x00, 0xd3, 0xa8, 0x06, 0x56, 0xc6, 0xd0, 0x50, 0xea, 0xec, 0xef,
  0xef, 0x4b, 0x36, 0xcd, 0xf9, 0x89, 0x17, 0x7c, 0x19, 0x17, 0xea, 0x9b,
  0xfc, 0x4d, 0xfa, 0x30, 0x39, 0x4e, 0xfa, 0xf4, 0x28, 0x81, 0x1f, 0xe9,
  0xbd, 0xbb, 0xec, 0xcc, 0x29, 0xea, 0x4d, 0x43, 0x17, 0xc7, 0x3b, 0xc0,
  0xb3, 0x47, 0x34, 0x05, 0x2b, 0xd5, 0xde, 0x1c, 0x0a, 0xf4, 0x27, 0xea,
  0x15, 0x24, 0x2e, 0xdb, 0xeb, 0x98, 0xd1, 0xaf, 0x20, 0x3d, 0xf3, 0xf0,
  0xe2, 0x1b, 0xf8, 0x2a, 0xd9, 0x1b, 0x15, 0x07, 0xda, 0xf0, 0x64, 0xdb,
  0x3e, 0xf8, 0x31, 0xca, 0xf4, 0x04, 0x1d, 0xd9, 0x02, 0x15, 0xdc, 0xec,
  0xd4, 0x87, 0x38, 0xe0, 0xa5, 0xe4, 0xe0, 0x1f, 0x3f, 0x05, 0xf5, 0x31,
  0x51, 0xee, 0x24, 0x30, 0x14, 0xbc, 0x40, 0x0e, 0xe9, 0xe7, 0xfa, 0xe2,
  0xf3, 0x02, 0xf2, 0x1b, 0x07, 0x3c, 0x36, 0xa4, 0x01, 0xb0, 0x0d, 0xf0,
  0xbe, 0xdb, 0xf4, 0xa4, 0xe4, 0x4b, 0x19, 0xbf, 0xeb, 0xdc, 0x25, 0xfe,
  0xff, 0xf8, 0x33, 0x09, 0xbd, 0xf9, 0xe7, 0xcc, 0xfb, 0xe5, 0xe1, 0xe3,
  0x34, 0x12, 0x42, 0xea, 0xe1, 0x44, 0xe2, 0x05, 0xac, 0xe4, 0x20, 0x24,
  0xc2, 0xd9, 0xe8, 0x0c, 0x40, 0xc9, 0xd0, 0x34, 0xda, 0x12, 0xf0, 0x26,
  0xc8, 0x1e, 0x3f, 0x02, 0x08, 0xfc, 0xd2, 0x15, 0x09, 0x4d, 0x12, 0x21,
  0xc8, 0x32, 0xf3, 0xe3, 0xba, 0x70, 0x7f, 0x12, 0x02, 0x26, 0xdc, 0xe1,
  0x19, 0xf2, 0x16, 0x07, 0xe5, 0xc7, 0x15, 0x49, 0xd4, 0x35, 0xeb, 0x15,
  0x18, 0x0d, 0xe1, 0x15, 0xe9, 0x2c, 0xd7, 0xf6, 0xef, 0x81, 0xe7, 0x0e,
  0xf0, 0xf4, 0xfc, 0xfe, 0x26, 0xdb, 0xea, 0x08, 0x03, 0xd6, 0x25, 0x1a,
  0x18, 0xef, 0x11, 0x2b, 0x0d, 0xf8, 0xd7, 0xd7, 0x1f, 0xdd, 0x1d, 0xfa,
  0x15, 0x0d, 0xe0, 0xe0, 0xed, 0x0a, 0x0c, 0x0d, 0x0e, 0x05, 0x10, 0x1c,
  0xef, 0x03, 0xea, 0x0f, 0xc7, 0x1f, 0x05, 0x04, 0xe0, 0xeb, 0x0b, 0x00,
  0x0b, 0x16, 0xc4, 0xff, 0x0b, 0x48, 0x20, 0xee, 0xc3, 0x1c, 0x02, 0xef,
  0xe9, 0xbf, 0x1b, 0xd2, 0xfd, 0x26, 0xe2, 0x20, 0x0b, 0x5b, 0xd3, 0x1d,
  0x0e, 0x05, 0xec, 0x00, 0xd1, 0x37, 0x09, 0x3c, 0x55, 0x31, 0xc5, 0xd6,
  0x01, 0xe7, 0xec, 0x39, 0x16, 0x07, 0xe0, 0xc2, 0xcd, 0x1d, 0x4a, 0x10,
  0x2c, 0x3c, 0x3b, 0x39, 0xf6, 0x23, 0x18, 0xc7, 0xe5, 0xd1, 0xf5, 0xc2,
  0xfe, 0x14, 0xde, 0x17, 0xde, 0x09, 0x0b, 0xd2, 0x2d, 0x09, 0x3c, 0x17,
  0x32, 0x20, 0x1b, 0x16, 0x30, 0x1d, 0xc4, 0xef, 0x81, 0xe1, 0xb7, 0xfa,
  0xff, 0x42, 0x27, 0x02, 0xc6, 0xdf, 0xdb, 0x12, 0x3d, 0x13, 0x10, 0x12,
  0xdc, 0xfb, 0xaa, 0x48, 0xfd, 0x44, 0xda, 0xd0, 0x19, 0xcc, 0xd5, 0x03,
  0xd1, 0x07, 0x41, 0xbd, 0xdf, 0xcd, 0xe8, 0x39, 0xbe, 0xe5, 0x5c, 0xc6,
  0x02, 0x12, 0x32, 0xbd, 0x79, 0xfe, 0xc9, 0xd2, 0xc7, 0x02, 0x40, 0xf5,
  0x3d, 0x3b, 0x3f, 0x17, 0x40, 0xa7, 0x4d, 0x74, 0x31, 0x72, 0x3a, 0xec,
  0x9e, 0xea, 0x88, 0xa7, 0x82, 0x8f, 0xf4, 0x0c, 0x99, 0x8d, 0x67, 0x3d,
  0x81, 0xfd, 0x4a, 0xbf, 0xcc, 0xbc, 0x3c, 0xf8, 0x72, 0xc4, 0xab, 0x75,
  0xa3, 0xfc, 0xa5, 0x09, 0x37, 0x63, 0xf6, 0x63, 0x8e, 0x74, 0x22, 0xda,
  0x45, 0x3b, 0x87, 0xe7, 0x25, 0xf0, 0xff, 0x94, 0x1b, 0xc9, 0x1a, 0x2c,
  0x6c, 0x8d, 0xcb, 0x56, 0x82, 0xaf, 0xea, 0x03, 0xe7, 0x39, 0x58, 0x74,
  0xea, 0xc3, 0x9b, 0x96, 0xc1, 0xc2, 0xaf, 0xfc, 0xab, 0xf6, 0x90, 0x44,
  0x04, 0x55, 0x56, 0xca, 0xe1, 0xe2, 0x4e, 0xf3, 0xe9, 0x7a, 0xa0, 0x4d,
  0xfd, 0x11, 0x30, 0xad, 0xbd, 0xca, 0xaa, 0x21, 0xcc, 0xbc, 0xa8, 0x1c,
  0x97, 0x1b, 0xbf, 0x2c, 0x74, 0x5f, 0x86, 0xd3, 0xad, 0xf0, 0x59, 0x55,
  0xbc, 0xf7, 0xbd, 0x33, 0x65, 0xc0, 0x05, 0x64, 0xb0, 0xb5, 0x84, 0x69,
  0x52, 0xac, 0x3e, 0xb1, 0x5e, 0x71, 0xcc, 0x87, 0x6e, 0xaa, 0x4f, 0x0c,
  0xf5, 0x16, 0xd9, 0x09, 0x5b, 0x87, 0x33, 0xbe, 0x57, 0xc1, 0xdb, 0x81,
  0x0c, 0x3c, 0xde, 0x12, 0x30, 0xd2, 0x79, 0x5f, 0x88, 0xe0, 0x15, 0x93,
  0x2e, 0xa4, 0x59, 0x4e, 0x1d, 0xec, 0x63, 0x0a, 0xf3, 0x0a, 0x15, 0xaf,
  0xda, 0x15, 0x11, 0x33, 0xed, 0x55, 0x3b, 0xdd, 0xea, 0x0e, 0x37, 0x1a,
  0x1a, 0x31, 0xcd, 0xe1, 0xe1, 0x66, 0x12, 0x32, 0xe7, 0xe5, 0x54, 0xfe,
  0x1e, 0x42, 0x40, 0xe3, 0x2b, 0xc9, 0x4d, 0xca, 0xcd, 0xf4, 0x22, 0x25,
  0xa8, 0xa2, 0xff, 0x26, 0x26, 0xc2, 0xdb, 0x39, 0xb7, 0x0d, 0x59, 0x54,
  0x4b, 0x59, 0x5c, 0x1f, 0xd9, 0x7f, 0x4c, 0xf4, 0xd6, 0xdb, 0xbd, 0x51,
  0x13, 0x26, 0xe0, 0x02, 0x42, 0xf0, 0x52, 0x58, 0x47, 0xd1, 0x21, 0x00,
  0xd0, 0x6f, 0x0e, 0x4a, 0x07, 0xa8, 0x00, 0xd5, 0x0c, 0x56, 0x16, 0x43,
  0xac, 0xe9, 0x40, 0xa7, 0x85, 0xfa, 0xd8, 0x10, 0xe6, 0xe0, 0x03, 0x4a,
  0xe1, 0x27, 0xbc, 0x11, 0xfb, 0xda, 0xe3, 0xdb, 0xba, 0xbd, 0xf8, 0x1d,
  0x1c, 0x2e, 0x05, 0x43, 0xac, 0x03, 0x13, 0x35, 0xc2, 0xc4, 0xad, 0xc5,
  0xe3, 0xfb, 0xf9, 0xd5, 0x37, 0x24, 0xd7, 0x38, 0xeb, 0x28, 0xf2, 0xce,
  0x22, 0x2d, 0x04, 0xbd, 0xd2, 0xc9, 0xaf, 0x3f, 0x00, 0xb9, 0x3f, 0xf3,
  0x27, 0x3d, 0x3a, 0x3c, 0xc3, 0xc0, 0xbc, 0xec, 0x1c, 0xf2, 0xcf, 0x12,
  0xca, 0xe4, 0xc9, 0x13, 0xd2, 0x2e, 0x1f, 0x0e, 0xb5, 0xfb, 0xfb, 0x3b,
  0x44, 0x08, 0xad, 0xc8, 0x3f, 0x33, 0xc0, 0x43, 0x09, 0xcb, 0x49, 0x17,
  0xf0, 0x7f, 0xde, 0x04, 0xc6, 0x02, 0xed, 0x32, 0xdb, 0xe7, 0xe7, 0xe9,
  0x17, 0x31, 0xd3, 0xd7, 0xb1, 0x2c, 0xcd, 0x6b, 0x4c, 0x23, 0xc7, 0xdd,
  0x04, 0xc1, 0xbd, 0x4c, 0xd2, 0x39, 0xe4, 0xc3, 0x02, 0x03, 0x19, 0x3a,
  0x34, 0xd8, 0xf4, 0xb9, 0x3b, 0xea, 0xb0, 0x07, 0x10, 0xff, 0x3b, 0xeb,
  0x2c, 0xf1, 0x09, 0xf6, 0xfc, 0x13, 0xeb, 0xce, 0xd9, 0xff, 0x30, 0x3a,
  0x16, 0xc8, 0xad, 0xf6, 0xe1, 0x55, 0xf5, 0xd7, 0xe4, 0x4d, 0xfa, 0xd3,
  0xfa, 0x22, 0xc2, 0xf3, 0x26, 0x37, 0xdc, 0xf1, 0xcf, 0x7e, 0xd7, 0xeb,
  0xf5, 0x60, 0x30, 0xde, 0x59, 0x3d, 0x3b, 0x48, 0x9f, 0x54, 0xae, 0x9e,
  0xea, 0xea, 0x5b, 0xfc, 0x9c, 0xc7, 0x9b, 0x7f, 0x2a, 0xd8, 0xf4, 0xd3,
  0x03, 0xa1, 0x3e, 0xe3, 0x29, 0x74, 0x0c, 0x1c, 0x1c, 0xfb, 0xcd, 0xf8,
  0xb6, 0xee, 0x19, 0xa7, 0x9a, 0xee, 0xcf, 0x27, 0x59, 0x41, 0x4b, 0xe2,
  0x7f, 0x04, 0x51, 0x58, 0x4e, 0x32, 0xe1, 0xc2, 0x33, 0xa8, 0xed, 0x2d,
  0x52, 0x62, 0x03, 0x36, 0x27, 0xf6, 0xa0, 0xe1, 0xe3, 0x32, 0xb2, 0xac,
  0xb6, 0x9f, 0xcf, 0xbb, 0xbb, 0x5d, 0xbd, 0x03, 0x4f, 0xf1, 0xb9, 0x21,
  0xa5, 0x02, 0x20, 0x2e, 0x19, 0x39, 0xc8, 0xcf, 0xd7, 0x4f, 0x29, 0x0f,
  0x07, 0xfc, 0x45, 0xd7, 0xed, 0x25, 0x4e, 0x39, 0xc7, 0x12, 0x00, 0xfa,
  0xbb, 0xd1, 0xe4, 0xf0, 0xb4, 0x38, 0x47, 0xf7, 0xd4, 0xa0, 0xd2, 0xc3,
  0x41, 0xf7, 0x18, 0xc2, 0x2f, 0x2c, 0x8c, 0xfe, 0x60, 0x4a, 0xcd, 0x18,
  0x49, 0x2a, 0xa7, 0x26, 0xe0, 0x5e, 0xdd, 0x48, 0x04, 0x1d, 0xf7, 0x4f,
  0x56, 0xfe, 0xfc, 0x06, 0x3b, 0x50, 0xbc, 0x65, 0xda, 0x9e, 0x27, 0x2c,
  0xa8, 0x8a, 0xfc, 0x07, 0xfa, 0x19, 0xfc, 0x1c, 0x50, 0xa4, 0x9e, 0x08,
  0x8c, 0xde, 0x6e, 0xcb, 0x1e, 0x32, 0xc1, 0x02, 0x8a, 0xcd, 0xc8, 0x8a,
  0x61, 0xc2, 0xcd, 0x43, 0x48, 0x87, 0xb0, 0x52, 0xce, 0x5a, 0xc9, 0x65,
  0x09, 0x81, 0x32, 0x91, 0xdd, 0xd6, 0xa2, 0x46, 0x64, 0xcf, 0x25, 0xbe,
  0xcf, 0x0c, 0x1a, 0x4f, 0x49, 0xe0, 0xee, 0x30, 0xe9, 0x1b, 0xd8, 0xe1,
  0x30, 0x28, 0xf7, 0x08, 0x00, 0x23, 0x18, 0xf4, 0x01, 0xd2, 0x23, 0x0d,
  0x0b, 0x3a, 0xe5, 0x05, 0x11, 0x27, 0x2c, 0xfb, 0x0c, 0x32, 0x53, 0x23,
  0xf8, 0xf4, 0xf2, 0xfb, 0x15, 0x21, 0xe9, 0x20, 0x17, 0x10, 0xfa, 0xf9,
  0xd3, 0x1d, 0x2d, 0x25, 0xe3, 0xde, 0xe6, 0xea, 0x01, 0x04, 0x1d, 0xe4,
  0xf7, 0x05, 0xda, 0xe7, 0x15, 0xc7, 0x17, 0x0b, 0x18, 0xae, 0x17, 0x0f,
  0x23, 0x03, 0x1c, 0xe1, 0x05, 0x13, 0x0b, 0xc4, 0x17, 0x10, 0x43, 0x23,
  0xd6, 0xba, 0xf5, 0x06, 0x17, 0x19, 0xf4, 0x1c, 0x4b, 0xe5, 0xef, 0xab,
  0x0d, 0xec, 0x37, 0x6a, 0x3f, 0x81, 0x06, 0xbb, 0xaa, 0x7a, 0x0a, 0x21,
  0x02, 0xdd, 0x07, 0x56, 0x2f, 0x1c, 0x3c, 0x79, 0x0c, 0xb1, 0x8b, 0x41,
  0xb6, 0x03, 0x22, 0x3e, 0x0e, 0x26, 0x7d, 0xa4, 0x32, 0x23, 0x78, 0xe0,
  0x90, 0x6b, 0xba, 0x85, 0x4d, 0x21, 0x7c, 0xbc, 0xeb, 0xc8, 0xa7, 0xc9,
  0xb3, 0x2a, 0x81, 0x6b, 0xd4, 0x22, 0xc3, 0x44, 0x85, 0xed, 0x66, 0x56,
  0x8c, 0xbe, 0x58, 0x41, 0x53, 0x25, 0x7e, 0xf9, 0xdd, 0xc0, 0x0c, 0xcd,
  0xd8, 0xcf, 0x8a, 0xc2, 0x8d, 0xd1, 0xf0, 0xa3, 0x5e, 0x4e, 0xfc, 0xd8,
  0x7b, 0xe8, 0x83, 0x0d, 0xfa, 0x19, 0x2e, 0xed, 0xd2, 0x25, 0xfb, 0xac,
  0x52, 0x38, 0x41, 0x12, 0x91, 0x0b, 0x5d, 0x92, 0x4c, 0x83, 0x05, 0x3e,
  0xbb, 0xe5, 0x36, 0x30, 0x95, 0x31, 0xa8, 0x31, 0x60, 0x95, 0xa9, 0xf1,
  0x4b, 0x15, 0xca, 0x50, 0x51, 0x6a, 0x0b, 0x88, 0xfa, 0x72, 0xee, 0x4b,
  0x6b, 0xe5, 0x34, 0x2c, 0xbd, 0x9f, 0x23, 0x8e, 0x20, 0x17, 0x64, 0xe4,
  0xd9, 0xb1, 0xe2, 0xff, 0x0b, 0xde, 0xc4, 0xae, 0x29, 0x2f, 0x59, 0x51,
  0xbc, 0x4e, 0xd1, 0xa6, 0xc3, 0x37, 0x99, 0xbc, 0x3d, 0xf0, 0xd5, 0xa2,
  0x5e, 0x12, 0xd6, 0x62, 0xac, 0x2b, 0x09, 0xaa, 0x29, 0xc6, 0x42, 0xfe,
  0x57, 0xad, 0x65, 0x93, 0x81, 0xf7, 0xb5, 0x15, 0x81, 0xcc, 0x09, 0xc2,
  0xc5, 0xaa, 0x1f, 0xcd, 0x5e, 0x85, 0x63, 0xa4, 0x28, 0xb0, 0xef, 0x41,
  0xb8, 0x3e, 0xf6, 0x29, 0x68, 0xf6, 0xca, 0x1b, 0xbb, 0xb6, 0xfe, 0xca,
  0x0b, 0x04, 0x18, 0x2e, 0xee, 0xb5, 0x46, 0x6b, 0x1a, 0xc4, 0x05, 0x54,
  0x6f, 0x1b, 0xb1, 0xd6, 0xfe, 0x55, 0xda, 0xd1, 0xe9, 0xd3, 0x07, 0x16,
  0x59, 0x06, 0xd8, 0x93, 0x01, 0xf3, 0xed, 0x38, 0x05, 0xbb, 0x22, 0x29,
  0xd0, 0x58, 0x97, 0xed, 0x28, 0xe6, 0x00, 0x07, 0x50, 0xdc, 0xbd, 0x3c,
  0x81, 0xf0, 0x51, 0x1c, 0x20, 0x44, 0x62, 0x5b, 0x2c, 0xa0, 0xb4, 0x5c,
  0x67, 0x99, 0x08, 0x99, 0x41, 0xeb, 0x23, 0xf9, 0x27, 0xce, 0x37, 0xdb,
  0x21, 0xc3, 0xa8, 0x2c, 0x02, 0xa1, 0x97, 0x10, 0x0e, 0xff, 0xff, 0xff,
  0x04, 0x00, 0x00, 0x00, 0x40, 0x00, 0x00, 0x00, 0x1f, 0xf4, 0xff, 0xff,
  0x9a, 0x13, 0x00, 0x00, 0xa1, 0x24, 0x00, 0x00, 0x47, 0xf0, 0xff, 0xff,
  0xab, 0xf5, 0xff, 0xff, 0x00, 0x00, 0x00, 0x00, 0x00, 0x00, 0x00, 0x00,
  0x58, 0x26, 0x00, 0x00, 0xa0, 0xf0, 0xff, 0xff, 0xa3, 0x0d, 0x00, 0x00,
  0x61, 0xef, 0xff, 0xff, 0x1f, 0xed, 0xff, 0xff, 0x71, 0x11, 0x00, 0x00,
  0x00, 0x00, 0x00, 0x00, 0xed, 0xee, 0xff, 0xff, 0xa7, 0xef, 0xff, 0xff,
  0x5a, 0xff, 0xff, 0xff, 0x04, 0x00, 0x00, 0x00, 0x40, 0x00, 0x00, 0x00,
  0x46, 0x21, 0xfd, 0xee, 0xdd, 0x81, 0xf8, 0x2f, 0xaa, 0xeb, 0x1a, 0x35,
  0x67, 0x21, 0xed, 0x8d, 0xe4, 0x02, 0xf2, 0x6d, 0x28, 0x14, 0x47, 0x7f,
  0xd5, 0x72, 0x1c, 0x8e, 0xd9, 0x72, 0x23, 0x06, 0x54, 0xb7, 0xf8, 0xb9,
  0x49, 0x5c, 0xba, 0x1f, 0x77, 0x0f, 0x87, 0xb3, 0x34, 0x4b, 0x52, 0x7f,
  0xd0, 0x1e, 0x39, 0xcd, 0xcf, 0xd0, 0xa9, 0x7f, 0xbb, 0xe4, 0xdd, 0x1d,
  0xd0, 0xb0, 0xd4, 0xd8, 0xa6, 0xff, 0xff, 0xff, 0x04, 0x00, 0x00, 0x00,
  0x10, 0x00, 0x00, 0x00, 0x34, 0xff, 0xff, 0xff, 0x55, 0x08, 0x00, 0x00,
  0xd9, 0xfb, 0xff, 0xff, 0x31, 0x0f, 0x00, 0x00, 0xc2, 0xff, 0xff, 0xff,
  0x04, 0x00, 0x00, 0x00, 0x08, 0x00, 0x00, 0x00, 0xff, 0xff, 0xff, 0xff,
  0x60, 0x00, 0x00, 0x00, 0xd6, 0xff, 0xff, 0xff, 0x04, 0x00, 0x00, 0x00,
  0x04, 0x00, 0x00, 0x00, 0x01, 0x00, 0x00, 0x00, 0xe6, 0xff, 0xff, 0xff,
  0x04, 0x00, 0x00, 0x00, 0x0c, 0x00, 0x00, 0x00, 0xff, 0xff, 0xff, 0xff,
  0x0d, 0x00, 0x00, 0x00, 0x10, 0x00, 0x00, 0x00, 0x00, 0x00, 0x06, 0x00,
  0x08, 0x00, 0x04, 0x00, 0x06, 0x00, 0x00, 0x00, 0x04, 0x00, 0x00, 0x00,
  0x04, 0x00, 0x00, 0x00, 0xfd, 0xff, 0xff, 0xff, 0x8c, 0xf1, 0xff, 0xff,
  0x90, 0xf1, 0xff, 0xff, 0x0f, 0x00, 0x00, 0x00, 0x4d, 0x4c, 0x49, 0x52,
  0x20, 0x43, 0x6f, 0x6e, 0x76, 0x65, 0x72, 0x74, 0x65, 0x64, 0x2e, 0x00,
  0x01, 0x00, 0x00, 0x00, 0x14, 0x00, 0x00, 0x00, 0x00, 0x00, 0x0e, 0x00,
  0x18, 0x00, 0x14, 0x00, 0x10, 0x00, 0x0c, 0x00, 0x08, 0x00, 0x04, 0x00,
  0x0e, 0x00, 0x00, 0x00, 0x14, 0x00, 0x00, 0x00, 0x1c, 0x00, 0x00, 0x00,
  0x1c, 0x02, 0x00, 0x00, 0x20, 0x02, 0x00, 0x00, 0x24, 0x02, 0x00, 0x00,
  0x04, 0x00, 0x00, 0x00, 0x6d, 0x61, 0x69, 0x6e, 0x00, 0x00, 0x00, 0x00,
  0x08, 0x00, 0x00, 0x00, 0xd4, 0x01, 0x00, 0x00, 0x70, 0x01, 0x00, 0x00,
  0x38, 0x01, 0x00, 0x00, 0xfc, 0x00, 0x00, 0x00, 0xa8, 0x00, 0x00, 0x00,
  0x80, 0x00, 0x00, 0x00, 0x3c, 0x00, 0x00, 0x00, 0x04, 0x00, 0x00, 0x00,
  0xba, 0xfe, 0xff, 0xff, 0x14, 0x00, 0x00, 0x00, 0x00, 0x00, 0x00, 0x08,
  0x10, 0x00, 0x00, 0x00, 0x14, 0x00, 0x00, 0x00, 0x04, 0x00, 0x00, 0x00,
  0x20, 0xf2, 0xff, 0xff, 0x01, 0x00, 0x00, 0x00, 0x12, 0x00, 0x00, 0x00,
  0x03, 0x00, 0x00, 0x00, 0x11, 0x00, 0x00, 0x00, 0x06, 0x00, 0x00, 0x00,
  0x05, 0x00, 0x00, 0x00, 0xee, 0xfe, 0xff, 0xff, 0x1c, 0x00, 0x00, 0x00,
  0x00, 0x00, 0x00, 0x08, 0x1c, 0x00, 0x00, 0x00, 0x20, 0x00, 0x00, 0x00,
  0x04, 0x00, 0x00, 0x00, 0x00, 0x00, 0x06, 0x00, 0x08, 0x00, 0x07, 0x00,
  0x06, 0x00, 0x00, 0x00, 0x00, 0x00, 0x00, 0x01, 0x01, 0x00, 0x00, 0x00,
  0x11, 0x00, 0x00, 0x00, 0x03, 0x00, 0x00, 0x00, 0x10, 0x00, 0x00, 0x00,
  0x08, 0x00, 0x00, 0x00, 0x07, 0x00, 0x00, 0x00, 0x5e, 0xff, 0xff, 0xff,
  0x0c, 0x00, 0x00, 0x00, 0x10, 0x00, 0x00, 0x00, 0x02, 0x00, 0x00, 0x00,
  0x01, 0x00, 0x00, 0x00, 0x10, 0x00, 0x00, 0x00, 0x02, 0x00, 0x00, 0x00,
  0x0f, 0x00, 0x00, 0x00, 0x04, 0x00, 0x00, 0x00, 0x52, 0xff, 0xff, 0xff,
  0x24, 0x00, 0x00, 0x00, 0x00, 0x00, 0x00, 0x05, 0x34, 0x00, 0x00, 0x00,
  0x38, 0x00, 0x00, 0x00, 0x03, 0x00, 0x00, 0x00, 0x00, 0x00, 0x0e, 0x00,
  0x18, 0x00, 0x17, 0x00, 0x10, 0x00, 0x0c, 0x00, 0x08, 0x00, 0x04, 0x00,
  0x0e, 0x00, 0x00, 0x00, 0x01, 0x00, 0x00, 0x00, 0x02, 0x00, 0x00, 0x00,
  0x01, 0x00, 0x00, 0x00, 0x02, 0x00, 0x00, 0x00, 0x00, 0x00, 0x00, 0x01,
  0x01, 0x00, 0x00, 0x00, 0x0f, 0x00, 0x00, 0x00, 0x01, 0x00, 0x00, 0x00,
  0x0e, 0x00, 0x00, 0x00, 0x42, 0xff, 0xff, 0xff, 0x10, 0x00, 0x00, 0x00,
  0x00, 0x00, 0x00, 0x34, 0x0c, 0x00, 0x00, 0x00, 0x10, 0x00, 0x00, 0x00,
  0x04, 0xf3, 0xff, 0xff, 0x01, 0x00, 0x00, 0x00, 0x0e, 0x00, 0x00, 0x00,
  0x02, 0x00, 0x00, 0x00, 0x0d, 0x00, 0x00, 0x00, 0x03, 0x00, 0x00, 0x00,
  0x00, 0x00, 0x0a, 0x00, 0x10, 0x00, 0x0c, 0x00, 0x08, 0x00, 0x04, 0x00,
  0x0a, 0x00, 0x00, 0x00, 0x0c, 0x00, 0x00, 0x00, 0x10, 0x00, 0x00, 0x00,
  0x02, 0x00, 0x00, 0x00, 0x01, 0x00, 0x00, 0x00, 0x0d, 0x00, 0x00, 0x00,
  0x02, 0x00, 0x00, 0x00, 0x0c, 0x00, 0x00, 0x00, 0x02, 0x00, 0x00, 0x00,
  0x00, 0x00, 0x0e, 0x00, 0x18, 0x00, 0x14, 0x00, 0x10, 0x00, 0x0c, 0x00,
  0x0b, 0x00, 0x04, 0x00, 0x0e, 0x00, 0x00, 0x00, 0x20, 0x00, 0x00, 0x00,
  0x00, 0x00, 0x00, 0x01, 0x2c, 0x00, 0x00, 0x00, 0x30, 0x00, 0x00, 0x00,
  0x01, 0x00, 0x00, 0x00, 0x0c, 0x00, 0x14, 0x00, 0x13, 0x00, 0x0c, 0x00,
  0x08, 0x00, 0x07, 0x00, 0x0c, 0x00, 0x00, 0x00, 0x00, 0x00, 0x00, 0x01,
  0x01, 0x00, 0x00, 0x00, 0x01, 0x00, 0x00, 0x00, 0x00, 0x00, 0x00, 0x01,
  0x01, 0x00, 0x00, 0x00, 0x0c, 0x00, 0x00, 0x00, 0x03, 0x00, 0x00, 0x00,
  0x0b, 0x00, 0x00, 0x00, 0x0a, 0x00, 0x00, 0x00, 0x09, 0x00, 0x00, 0x00,
  0x00, 0x00, 0x0e, 0x00, 0x14, 0x00, 0x00, 0x00, 0x10, 0x00, 0x0c, 0x00,
  0x0b, 0x00, 0x04, 0x00, 0x0e, 0x00, 0x00, 0x00, 0x10, 0x00, 0x00, 0x00,
  0x00, 0x00, 0x00, 0x34, 0x0c, 0x00, 0x00, 0x00, 0x10, 0x00, 0x00, 0x00,
  0xd0, 0xf3, 0xff, 0xff, 0x01, 0x00, 0x00, 0x00, 0x0b, 0x00, 0x00, 0x00,
  0x02, 0x00, 0x00, 0x00, 0x00, 0x00, 0x00, 0x00, 0x01, 0x00, 0x00, 0x00,
  0x01, 0x00, 0x00, 0x00, 0x12, 0x00, 0x00, 0x00, 0x01, 0x00, 0x00, 0x00,
  0x00, 0x00, 0x00, 0x00, 0x13, 0x00, 0x00, 0x00, 0x3c, 0x0c, 0x00, 0x00,
  0xe4, 0x0b, 0x00, 0x00, 0x8c, 0x0b, 0x00, 0x00, 0x50, 0x0b, 0x00, 0x00,
  0x10, 0x0b, 0x00, 0x00, 0x88, 0x0a, 0x00, 0x00, 0xfc, 0x09, 0x00, 0x00,
  0xe8, 0x08, 0x00, 0x00, 0xcc, 0x07, 0x00, 0x00, 0xb8, 0x06, 0x00, 0x00,
  0x94, 0x05, 0x00, 0x00, 0xf0, 0x04, 0x00, 0x00, 0xe4, 0x03, 0x00, 0x00,
  0x0c, 0x03, 0x00, 0x00, 0x64, 0x02, 0x00, 0x00, 0xc8, 0x01, 0x00, 0x00,
  0x44, 0x01, 0x00, 0x00, 0x80, 0x00, 0x00, 0x00, 0x04, 0x00, 0x00, 0x00,
  0x26, 0xf4, 0xff, 0xff, 0x00, 0x00, 0x00, 0x01, 0x18, 0x00, 0x00, 0x00,
  0x20, 0x00, 0x00, 0x00, 0x3c, 0x00, 0x00, 0x00, 0x13, 0x00, 0x00, 0x00,
  0x00, 0x00, 0x00, 0x09, 0x50, 0x00, 0x00, 0x00, 0x02, 0x00, 0x00, 0x00,
  0xff, 0xff, 0xff, 0xff, 0x04, 0x00, 0x00, 0x00, 0x0c, 0xf4, 0xff, 0xff,
  0x08, 0x00, 0x00, 0x00, 0x10, 0x00, 0x00, 0x00, 0x01, 0x00, 0x00, 0x00,
  0x80, 0xff, 0xff, 0xff, 0xff, 0xff, 0xff, 0xff, 0x01, 0x00, 0x00, 0x00,
  0xa4, 0x2c, 0x60, 0x3b, 0x1b, 0x00, 0x00, 0x00, 0x53, 0x74, 0x61, 0x74,
  0x65, 0x66, 0x75, 0x6c, 0x50, 0x61, 0x72, 0x74, 0x69, 0x74, 0x69, 0x6f,
  0x6e, 0x65, 0x64, 0x43, 0x61, 0x6c, 0x6c, 0x5f, 0x31, 0x3a, 0x30, 0x00,
  0x02, 0x00, 0x00, 0x00, 0x01, 0x00, 0x00, 0x00, 0x04, 0x00, 0x00, 0x00,
  0x9e, 0xf4, 0xff, 0xff, 0x00, 0x00, 0x00, 0x01, 0x18, 0x00, 0x00, 0x00,
  0x20, 0x00, 0x00, 0x00, 0x40, 0x00, 0x00, 0x00, 0x12, 0x00, 0x00, 0x00,
  0x00, 0x00, 0x00, 0x09, 0x98, 0x00, 0x00, 0x00, 0x02, 0x00, 0x00, 0x00,
  0xff, 0xff, 0xff, 0xff, 0x10, 0x00, 0x00, 0x00, 0x84, 0xf4, 0xff, 0xff,
  0x08, 0x00, 0x00, 0x00, 0x14, 0x00, 0x00, 0x00, 0x01, 0x00, 0x00, 0x00,
  0x80, 0xff, 0xff, 0xff, 0xff, 0xff, 0xff, 0xff, 0x00, 0x00, 0x00, 0x00,
  0x01, 0x00, 0x00, 0x00, 0xdb, 0xb2, 0xb2, 0x3b, 0x5e, 0x00, 0x00, 0x00,
  0x73, 0x65, 0x71, 0x75, 0x65, 0x6e, 0x74, 0x69, 0x61, 0x6c, 0x5f, 0x33,
  0x5f, 0x31, 0x2f, 0x64, 0x65, 0x6e, 0x73, 0x65, 0x5f, 0x39, 0x5f, 0x31,
  0x2f, 0x4d, 0x61, 0x74, 0x4d, 0x75, 0x6c, 0x3b, 0x73, 0x65, 0x71, 0x75,
  0x65, 0x6e, 0x74, 0x69, 0x61, 0x6c, 0x5f, 0x33, 0x5f, 0x31, 0x2f, 0x64,
  0x65, 0x6e, 0x73, 0x65, 0x5f, 0x39, 0x5f, 0x31, 0x2f, 0x52, 0x65, 0x6c,
  0x75, 0x3b, 0x73, 0x65, 0x71, 0x75, 0x65, 0x6e, 0x74, 0x69, 0x61, 0x6c,
  0x5f, 0x33, 0x5f, 0x31, 0x2f, 0x64, 0x65, 0x6e, 0x73, 0x65, 0x5f, 0x39,
  0x5f, 0x31, 0x2f, 0x42, 0x69, 0x61, 0x73, 0x41, 0x64, 0x64, 0x00, 0x00,
  0x02, 0x00, 0x00, 0x00, 0x01, 0x00, 0x00, 0x00, 0x10, 0x00, 0x00, 0x00,
  0x5e, 0xf5, 0xff, 0xff, 0x00, 0x00, 0x00, 0x01, 0x18, 0x00, 0x00, 0x00,
  0x20, 0x00, 0x00, 0x00, 0x3c, 0x00, 0x00, 0x00, 0x11, 0x00, 0x00, 0x00,
  0x00, 0x00, 0x00, 0x09, 0x58, 0x00, 0x00, 0x00, 0x02, 0x00, 0x00, 0x00,
  0xff, 0xff, 0xff, 0xff, 0x60, 0x00, 0x00, 0x00, 0x44, 0xf5, 0xff, 0xff,
  0x08, 0x00, 0x00, 0x00, 0x10, 0x00, 0x00, 0x00, 0x01, 0x00, 0x00, 0x00,
  0x80, 0xff, 0xff, 0xff, 0xff, 0xff, 0xff, 0xff, 0x01, 0x00, 0x00, 0x00,
  0x75, 0xdb, 0x24, 0x3b, 0x22, 0x00, 0x00, 0x00, 0x73, 0x65, 0x71, 0x75,
  0x65, 0x6e, 0x74, 0x69, 0x61, 0x6c, 0x5f, 0x33, 0x5f, 0x31, 0x2f, 0x66,
  0x6c, 0x61, 0x74, 0x74, 0x65, 0x6e, 0x5f, 0x33, 0x5f, 0x31, 0x2f, 0x52,
  0x65, 0x73, 0x68, 0x61, 0x70, 0x65, 0x00, 0x00, 0x02, 0x00, 0x00, 0x00,
  0x01, 0x00, 0x00, 0x00, 0x60, 0x00, 0x00, 0x00, 0xde, 0xf5, 0xff, 0xff,
  0x00, 0x00, 0x00, 0x01, 0x18, 0x00, 0x00, 0x00, 0x28, 0x00, 0x00, 0x00,
  0x44, 0x00, 0x00, 0x00, 0x10, 0x00, 0x00, 0x00, 0x00, 0x00, 0x00, 0x09,
  0x68, 0x00, 0x00, 0x00, 0x04, 0x00, 0x00, 0x00, 0xff, 0xff, 0xff, 0xff,
  0x01, 0x00, 0x00, 0x00, 0x06, 0x00, 0x00, 0x00, 0x10, 0x00, 0x00, 0x00,
  0xcc, 0xf5, 0xff, 0xff, 0x08, 0x00, 0x00, 0x00, 0x10, 0x00, 0x00, 0x00,
  0x01, 0x00, 0x00, 0x00, 0x80, 0xff, 0xff, 0xff, 0xff, 0xff, 0xff, 0xff,
  0x01, 0x00, 0x00, 0x00, 0x75, 0xdb, 0x24, 0x3b, 0x2a, 0x00, 0x00, 0x00,
  0x73, 0x65, 0x71, 0x75, 0x65, 0x6e, 0x74, 0x69, 0x61, 0x6c, 0x5f, 0x33,
  0x5f, 0x31, 0x2f, 0x6d, 0x61, 0x78, 0x5f, 0x70, 0x6f, 0x6f, 0x6c, 0x69,
  0x6e, 0x67, 0x31, 0x64, 0x5f, 0x36, 0x5f, 0x31, 0x2f, 0x4d, 0x61, 0x78,
  0x50, 0x6f, 0x6f, 0x6c, 0x31, 0x64, 0x00, 0x00, 0x04, 0x00, 0x00, 0x00,
  0x01, 0x00, 0x00, 0x00, 0x01, 0x00, 0x00, 0x00, 0x06, 0x00, 0x00, 0x00,
  0x10, 0x00, 0x00, 0x00, 0x76, 0xf6, 0xff, 0xff, 0x00, 0x00, 0x00, 0x01,
  0x18, 0x00, 0x00, 0x00, 0x28, 0x00, 0x00, 0x00, 0x44, 0x00, 0x00, 0x00,
  0x0f, 0x00, 0x00, 0x00, 0x00, 0x00, 0x00, 0x09, 0x74, 0x00, 0x00, 0x00,
  0x04, 0x00, 0x00, 0x00, 0xff, 0xff, 0xff, 0xff, 0x01, 0x00, 0x00, 0x00,
  0x0d, 0x00, 0x00, 0x00, 0x10, 0x00, 0x00, 0x00, 0x64, 0xf6, 0xff, 0xff,
  0x08, 0x00, 0x00, 0x00, 0x10, 0x00, 0x00, 0x00, 0x01, 0x00, 0x00, 0x00,
  0x80, 0xff, 0xff, 0xff, 0xff, 0xff, 0xff, 0xff, 0x01, 0x00, 0x00, 0x00,
  0x75, 0xdb, 0x24, 0x3b, 0x35, 0x00, 0x00, 0x00, 0x73, 0x65, 0x71, 0x75,
  0x65, 0x6e, 0x74, 0x69, 0x61, 0x6c, 0x5f, 0x33, 0x5f, 0x31, 0x2f, 0x6d,
  0x61, 0x78, 0x5f, 0x70, 0x6f, 0x6f, 0x6c, 0x69, 0x6e, 0x67, 0x31, 0x64,
  0x5f, 0x36, 0x5f, 0x31, 0x2f, 0x4d, 0x61, 0x78, 0x50, 0x6f, 0x6f, 0x6c,
  0x31, 0x64, 0x2f, 0x45, 0x78, 0x70, 0x61, 0x6e, 0x64, 0x44, 0x69, 0x6d,
  0x73, 0x00, 0x00, 0x00, 0x04, 0x00, 0x00, 0x00, 0x01, 0x00, 0x00, 0x00,
  0x01, 0x00, 0x00, 0x00, 0x0d, 0x00, 0x00, 0x00, 0x10, 0x00, 0x00, 0x00,
  0x1a, 0xf7, 0xff, 0xff, 0x00, 0x00, 0x00, 0x01, 0x18, 0x00, 0x00, 0x00,
  0x24, 0x00, 0x00, 0x00, 0x40, 0x00, 0x00, 0x00, 0x0e, 0x00, 0x00, 0x00,
  0x00, 0x00, 0x00, 0x09, 0xa8, 0x00, 0x00, 0x00, 0x03, 0x00, 0x00, 0x00,
  0xff, 0xff, 0xff, 0xff, 0x0d, 0x00, 0x00, 0x00, 0x10, 0x00, 0x00, 0x00,
  0x04, 0xf7, 0xff, 0xff, 0x08, 0x00, 0x00, 0x00, 0x10, 0x00, 0x00, 0x00,
  0x01, 0x00, 0x00, 0x00, 0x80, 0xff, 0xff, 0xff, 0xff, 0xff, 0xff, 0xff,
  0x01, 0x00, 0x00, 0x00, 0x75, 0xdb, 0x24, 0x3b, 0x6f, 0x00, 0x00, 0x00,
  0x73, 0x65, 0x71, 0x75, 0x65, 0x6e, 0x74, 0x69, 0x61, 0x6c, 0x5f, 0x33,
  0x5f, 0x31, 0x2f, 0x63, 0x6f, 0x6e, 0x76, 0x31, 0x64, 0x5f, 0x36, 0x5f,
  0x31, 0x2f, 0x52, 0x65, 0x6c, 0x75, 0x3b, 0x73, 0x65, 0x71, 0x75, 0x65,
  0x6e, 0x74, 0x69, 0x61, 0x6c, 0x5f, 0x33, 0x5f, 0x31, 0x2f, 0x63, 0x6f,
  0x6e, 0x76, 0x31, 0x64, 0x5f, 0x36, 0x5f, 0x31, 0x2f, 0x42, 0x69, 0x61,
  0x73, 0x41, 0x64, 0x64, 0x3b, 0x73, 0x65, 0x71, 0x75, 0x65, 0x6e, 0x74,
  0x69, 0x61, 0x6c, 0x5f, 0x33, 0x5f, 0x31, 0x2f, 0x63, 0x6f, 0x6e, 0x76,
  0x31, 0x64, 0x5f, 0x36, 0x5f, 0x31, 0x2f, 0x63, 0x6f, 0x6e, 0x76, 0x6f,
  0x6c, 0x75, 0x74, 0x69, 0x6f, 0x6e, 0x2f, 0x53, 0x71, 0x75, 0x65, 0x65,
  0x7a, 0x65, 0x3b, 0x00, 0x03, 0x00, 0x00, 0x00, 0x01, 0x00, 0x00, 0x00,
  0x0d, 0x00, 0x00, 0x00, 0x10, 0x00, 0x00, 0x00, 0xee, 0xf7, 0xff, 0xff,
  0x00, 0x00, 0x00, 0x01, 0x18, 0x00, 0x00, 0x00, 0x28, 0x00, 0x00, 0x00,
  0x48, 0x00, 0x00, 0x00, 0x0d, 0x00, 0x00, 0x00, 0x00, 0x00, 0x00, 0x09,
  0xd8, 0x00, 0x00, 0x00, 0x04, 0x00, 0x00, 0x00, 0xff, 0xff, 0xff, 0xff,
  0x01, 0x00, 0x00, 0x00, 0x0d, 0x00, 0x00, 0x00, 0x10, 0x00, 0x00, 0x00,
  0xdc, 0xf7, 0xff, 0xff, 0x08, 0x00, 0x00, 0x00, 0x14, 0x00, 0x00, 0x00,
  0x01, 0x00, 0x00, 0x00, 0x80, 0xff, 0xff, 0xff, 0xff, 0xff, 0xff, 0xff,
  0x00, 0x00, 0x00, 0x00, 0x01, 0x00, 0x00, 0x00, 0x75, 0xdb, 0x24, 0x3b,
  0x95, 0x00, 0x00, 0x00, 0x73, 0x65, 0x71, 0x75, 0x65, 0x6e, 0x74, 0x69,
  0x61, 0x6c, 0x5f, 0x33, 0x5f, 0x31, 0x2f, 0x63, 0x6f, 0x6e, 0x76, 0x31,
  0x64, 0x5f, 0x36, 0x5f, 0x31, 0x2f, 0x52, 0x65, 0x6c, 0x75, 0x3b, 0x73,
  0x65, 0x71, 0x75, 0x65, 0x6e, 0x74, 0x69, 0x61, 0x6c, 0x5f, 0x33, 0x5f,
  0x31, 0x2f, 0x63, 0x6f, 0x6e, 0x76, 0x31, 0x64, 0x5f, 0x36, 0x5f, 0x31,
  0x2f, 0x42, 0x69, 0x61, 0x73, 0x41, 0x64, 0x64, 0x3b, 0x73, 0x65, 0x71,
  0x75, 0x65, 0x6e, 0x74, 0x69, 0x61, 0x6c, 0x5f, 0x33, 0x5f, 0x31, 0x2f,
  0x63, 0x6f, 0x6e, 0x76, 0x31, 0x64, 0x5f, 0x36, 0x5f, 0x31, 0x2f, 0x63,
  0x6f, 0x6e, 0x76, 0x6f, 0x6c, 0x75, 0x74, 0x69, 0x6f, 0x6e, 0x2f, 0x53,
  0x71, 0x75, 0x65, 0x65, 0x7a, 0x65, 0x3b, 0x3b, 0x73, 0x65, 0x71, 0x75,
  0x65, 0x6e, 0x74, 0x69, 0x61, 0x6c, 0x5f, 0x33, 0x5f, 0x31, 0x2f, 0x63,
  0x6f, 0x6e, 0x76, 0x31, 0x64, 0x5f, 0x36, 0x5f, 0x31, 0x2f, 0x63, 0x6f,
  0x6e, 0x76, 0x6f, 0x6c, 0x75, 0x74, 0x69, 0x6f, 0x6e, 0x00, 0x00, 0x00,
  0x04, 0x00, 0x00, 0x00, 0x01, 0x00, 0x00, 0x00, 0x01, 0x00, 0x00, 0x00,
  0x0d, 0x00, 0x00, 0x00, 0x10, 0x00, 0x00, 0x00, 0xf6, 0xf8, 0xff, 0xff,
  0x00, 0x00, 0x00, 0x01, 0x18, 0x00, 0x00, 0x00, 0x28, 0x00, 0x00, 0x00,
  0x44, 0x00, 0x00, 0x00, 0x0c, 0x00, 0x00, 0x00, 0x00, 0x00, 0x00, 0x09,
  0x70, 0x00, 0x00, 0x00, 0x04, 0x00, 0x00, 0x00, 0xff, 0xff, 0xff, 0xff,
  0x01, 0x00, 0x00, 0x00, 0x0f, 0x00, 0x00, 0x00, 0x04, 0x00, 0x00, 0x00,
  0xe4, 0xf8, 0xff, 0xff, 0x08, 0x00, 0x00, 0x00, 0x10, 0x00, 0x00, 0x00,
  0x01, 0x00, 0x00, 0x00, 0x80, 0xff, 0xff, 0xff, 0xff, 0xff, 0xff, 0xff,
  0x01, 0x00, 0x00, 0x00, 0x98, 0xe0, 0x78, 0x3b, 0x30, 0x00, 0x00, 0x00,
  0x73, 0x65, 0x71, 0x75, 0x65, 0x6e, 0x74, 0x69, 0x61, 0x6c, 0x5f, 0x33,
  0x5f, 0x31, 0x2f, 0x63, 0x6f, 0x6e, 0x76, 0x31, 0x64, 0x5f, 0x36, 0x5f,
  0x31, 0x2f, 0x63, 0x6f, 0x6e, 0x76, 0x6f, 0x6c, 0x75, 0x74, 0x69, 0x6f,
  0x6e, 0x2f, 0x45, 0x78, 0x70, 0x61, 0x6e, 0x64, 0x44, 0x69, 0x6d, 0x73,
  0x00, 0x00, 0x00, 0x00, 0x04, 0x00, 0x00, 0x00, 0x01, 0x00, 0x00, 0x00,
  0x01, 0x00, 0x00, 0x00, 0x0f, 0x00, 0x00, 0x00, 0x04, 0x00, 0x00, 0x00,
  0xea, 0xf9, 0xff, 0xff, 0x00, 0x00, 0x00, 0x01, 0x14, 0x00, 0x00, 0x00,
  0xe8, 0x00, 0x00, 0x00, 0x0b, 0x00, 0x00, 0x00, 0x00, 0x00, 0x00, 0x09,
  0xf4, 0x00, 0x00, 0x00, 0x6c, 0xf9, 0xff, 0xff, 0x08, 0x00, 0x00, 0x00,
  0x8c, 0x00, 0x00, 0x00, 0x10, 0x00, 0x00, 0x00, 0x00, 0x00, 0x00, 0x00,
  0x00, 0x00, 0x00, 0x00, 0x00, 0x00, 0x00, 0x00, 0x00, 0x00, 0x00, 0x00,
  0x00, 0x00, 0x00, 0x00, 0x00, 0x00, 0x00, 0x00, 0x00, 0x00, 0x00, 0x00,
  0x00, 0x00, 0x00, 0x00, 0x00, 0x00, 0x00, 0x00, 0x00, 0x00, 0x00, 0x00,
  0x00, 0x00, 0x00, 0x00, 0x00, 0x00, 0x00, 0x00, 0x00, 0x00, 0x00, 0x00,
  0x00, 0x00, 0x00, 0x00, 0x00, 0x00, 0x00, 0x00, 0x00, 0x00, 0x00, 0x00,
  0x00, 0x00, 0x00, 0x00, 0x00, 0x00, 0x00, 0x00, 0x00, 0x00, 0x00, 0x00,
  0x00, 0x00, 0x00, 0x00, 0x00, 0x00, 0x00, 0x00, 0x00, 0x00, 0x00, 0x00,
  0x00, 0x00, 0x00, 0x00, 0x00, 0x00, 0x00, 0x00, 0x00, 0x00, 0x00, 0x00,
  0x00, 0x00, 0x00, 0x00, 0x00, 0x00, 0x00, 0x00, 0x00, 0x00, 0x00, 0x00,
  0x00, 0x00, 0x00, 0x00, 0x00, 0x00, 0x00, 0x00, 0x00, 0x00, 0x00, 0x00,
  0x00, 0x00, 0x00, 0x00, 0x00, 0x00, 0x00, 0x00, 0x10, 0x00, 0x00, 0x00,
  0xee, 0xb1, 0xfa, 0x3a, 0xaf, 0x52, 0x2a, 0x3b, 0x61, 0x4d, 0x0d, 0x3b,
  0x6f, 0xa1, 0x1c, 0x3b, 0x1c, 0x66, 0x2f, 0x3b, 0x9f, 0x8e, 0x15, 0x3b,
  0xcb, 0xbf, 0x1e, 0x3b, 0x7a, 0x79, 0x52, 0x3b, 0xb4, 0x01, 0x24, 0x3b,
  0x5f, 0x22, 0x12, 0x3b, 0xa6, 0x50, 0x29, 0x3b, 0x5f, 0x40, 0x40, 0x3b,
  0xdc, 0x39, 0x3b, 0x3b, 0x0c, 0x2a, 0x4d, 0x3b, 0x90, 0x79, 0x01, 0x3b,
  0xe1, 0x39, 0x27, 0x3b, 0x12, 0x00, 0x00, 0x00, 0x74, 0x66, 0x6c, 0x2e,
  0x70, 0x73, 0x65, 0x75, 0x64, 0x6f, 0x5f, 0x71, 0x63, 0x6f, 0x6e, 0x73,
  0x74, 0x35, 0x00, 0x00, 0x04, 0x00, 0x00, 0x00, 0x10, 0x00, 0x00, 0x00,
  0x01, 0x00, 0x00, 0x00, 0x03, 0x00, 0x00, 0x00, 0x04, 0x00, 0x00, 0x00,
  0x0a, 0xfb, 0xff, 0xff, 0x00, 0x00, 0x00, 0x01, 0x14, 0x00, 0x00, 0x00,
  0xe4, 0x00, 0x00, 0x00, 0x0a, 0x00, 0x00, 0x00, 0x00, 0x00, 0x00, 0x02,
  0xf0, 0x00, 0x00, 0x00, 0x8c, 0xfa, 0xff, 0xff, 0x08, 0x00, 0x00, 0x00,
  0x88, 0x00, 0x00, 0x00, 0x10, 0x00, 0x00, 0x00, 0x00, 0x00, 0x00, 0x00,
  0x00, 0x00, 0x00, 0x00, 0x00, 0x00, 0x00, 0x00, 0x00, 0x00, 0x00, 0x00,
  0x00, 0x00, 0x00, 0x00, 0x00, 0x00, 0x00, 0x00, 0x00, 0x00, 0x00, 0x00,
  0x00, 0x00, 0x00, 0x00, 0x00, 0x00, 0x00, 0x00, 0x00, 0x00, 0x00, 0x00,
  0x00, 0x00, 0x00, 0x00, 0x00, 0x00, 0x00, 0x00, 0x00, 0x00, 0x00, 0x00,
  0x00, 0x00, 0x00, 0x00, 0x00, 0x00, 0x00, 0x00, 0x00, 0x00, 0x00, 0x00,
  0x00, 0x00, 0x00, 0x00, 0x00, 0x00, 0x00, 0x00, 0x00, 0x00, 0x00, 0x00,
  0x00, 0x00, 0x00, 0x00, 0x00, 0x00, 0x00, 0x00, 0x00, 0x00, 0x00, 0x00,
  0x00, 0x00, 0x00, 0x00, 0x00, 0x00, 0x00, 0x00, 0x00, 0x00, 0x00, 0x00,
  0x00, 0x00, 0x00, 0x00, 0x00, 0x00, 0x00, 0x00, 0x00, 0x00, 0x00, 0x00,
  0x00, 0x00, 0x00, 0x00, 0x00, 0x00, 0x00, 0x00, 0x00, 0x00, 0x00, 0x00,
  0x00, 0x00, 0x00, 0x00, 0x10, 0x00, 0x00, 0x00, 0x4f, 0xb8, 0xf3, 0x36,
  0x87, 0x95, 0x25, 0x37, 0xee, 0x5e, 0x09, 0x37, 0xce, 0x45, 0x18, 0x37,
  0xcd, 0x84, 0x2a, 0x37, 0x60, 0x65, 0x11, 0x37, 0x13, 0x55, 0x1a, 0x37,
  0x55, 0x9e, 0x4c, 0x37, 0x89, 0x71, 0x1f, 0x37, 0x81, 0x11, 0x0e, 0x37,
  0xac, 0x9a, 0x24, 0x37, 0x07, 0xe7, 0x3a, 0x37, 0x4f, 0x04, 0x36, 0x37,
  0xba, 0x74, 0x47, 0x37, 0xb5, 0xbe, 0xfb, 0x36, 0xc8, 0x92, 0x22, 0x37,
  0x12, 0x00, 0x00, 0x00, 0x74, 0x66, 0x6c, 0x2e, 0x70, 0x73, 0x65, 0x75,
  0x64, 0x6f, 0x5f, 0x71, 0x63, 0x6f, 0x6e, 0x73, 0x74, 0x34, 0x00, 0x00,
  0x01, 0x00, 0x00, 0x00, 0x10, 0x00, 0x00, 0x00, 0x1a, 0xfc, 0xff, 0xff,
  0x00, 0x00, 0x00, 0x01, 0x14, 0x00, 0x00, 0x00, 0xe8, 0x00, 0x00, 0x00,
  0x09, 0x00, 0x00, 0x00, 0x00, 0x00, 0x00, 0x09, 0xf4, 0x00, 0x00, 0x00,
  0x9c, 0xfb, 0xff, 0xff, 0x08, 0x00, 0x00, 0x00, 0x8c, 0x00, 0x00, 0x00,
  0x10, 0x00, 0x00, 0x00, 0x00, 0x00, 0x00, 0x00, 0x00, 0x00, 0x00, 0x00,
  0x00, 0x00, 0x00, 0x00, 0x00, 0x00, 0x00, 0x00, 0x00, 0x00, 0x00, 0x00,
  0x00, 0x00, 0x00, 0x00, 0x00, 0x00, 0x00, 0x00, 0x00, 0x00, 0x00, 0x00,
  0x00, 0x00, 0x00, 0x00, 0x00, 0x00, 0x00, 0x00, 0x00, 0x00, 0x00, 0x00,
  0x00, 0x00, 0x00, 0x00, 0x00, 0x00, 0x00, 0x00, 0x00, 0x00, 0x00, 0x00,
  0x00, 0x00, 0x00, 0x00, 0x00, 0x00, 0x00, 0x00, 0x00, 0x00, 0x00, 0x00,
  0x00, 0x00, 0x00, 0x00, 0x00, 0x00, 0x00, 0x00, 0x00, 0x00, 0x00, 0x00,
  0x00, 0x00, 0x00, 0x00, 0x00, 0x00, 0x00, 0x00, 0x00, 0x00, 0x00, 0x00,
  0x00, 0x00, 0x00, 0x00, 0x00, 0x00, 0x00, 0x00, 0x00, 0x00, 0x00, 0x00,
  0x00, 0x00, 0x00, 0x00, 0x00, 0x00, 0x00, 0x00, 0x00, 0x00, 0x00, 0x00,
  0x00, 0x00, 0x00, 0x00, 0x00, 0x00, 0x00, 0x00, 0x00, 0x00, 0x00, 0x00,
  0x00, 0x00, 0x00, 0x00, 0x10, 0x00, 0x00, 0x00, 0xe1, 0x1a, 0xfb, 0x3a,
  0xac, 0xfd, 0x42, 0x3b, 0x38, 0xa6, 0x61, 0x3b, 0x99, 0xb9, 0xb0, 0x3b,
  0x3e, 0x1d, 0x70, 0x3b, 0x8d, 0xcb, 0xec, 0x3a, 0x5a, 0x7f, 0xed, 0x3a,
  0x27, 0x31, 0x1e, 0x3b, 0x8f, 0x44, 0x49, 0x3b, 0xc8, 0x44, 0x35, 0x3b,
  0xce, 0x69, 0x18, 0x3b, 0x28, 0xcc, 0x06, 0x3b, 0x4d, 0xb8, 0xa8, 0x3b,
  0x0e, 0x39, 0xee, 0x3a, 0xc1, 0xd3, 0x01, 0x3b, 0xb1, 0x4b, 0xfb, 0x3a,
  0x12, 0x00, 0x00, 0x00, 0x74, 0x66, 0x6c, 0x2e, 0x70, 0x73, 0x65, 0x75,
  0x64, 0x6f, 0x5f, 0x71, 0x63, 0x6f, 0x6e, 0x73, 0x74, 0x33, 0x00, 0x00,
  0x02, 0x00, 0x00, 0x00, 0x10, 0x00, 0x00, 0x00, 0x60, 0x00, 0x00, 0x00,
  0x32, 0xfd, 0xff, 0xff, 0x00, 0x00, 0x00, 0x01, 0x14, 0x00, 0x00, 0x00,
  0xe4, 0x00, 0x00, 0x00, 0x08, 0x00, 0x00, 0x00, 0x00, 0x00, 0x00, 0x02,
  0xf0, 0x00, 0x00, 0x00, 0xb4, 0xfc, 0xff, 0xff, 0x08, 0x00, 0x00, 0x00,
  0x88, 0x00, 0x00, 0x00, 0x10, 0x00, 0x00, 0x00, 0x00, 0x00, 0x00, 0x00,
  0x00, 0x00, 0x00, 0x00, 0x00, 0x00, 0x00, 0x00, 0x00, 0x00, 0x00, 0x00,
  0x00, 0x00, 0x00, 0x00, 0x00, 0x00, 0x00, 0x00, 0x00, 0x00, 0x00, 0x00,
  0x00, 0x00, 0x00, 0x00, 0x00, 0x00, 0x00, 0x00, 0x00, 0x00, 0x00, 0x00,
  0x00, 0x00, 0x00, 0x00, 0x00, 0x00, 0x00, 0x00, 0x00, 0x00, 0x00, 0x00,
  0x00, 0x00, 0x00, 0x00, 0x00, 0x00, 0x00, 0x00, 0x00, 0x00, 0x00, 0x00,
  0x00, 0x00, 0x00, 0x00, 0x00, 0x00, 0x00, 0x00, 0x00, 0x00, 0x00, 0x00,
  0x00, 0x00, 0x00, 0x00, 0x00, 0x00, 0x00, 0x00, 0x00, 0x00, 0x00, 0x00,
  0x00, 0x00, 0x00, 0x00, 0x00, 0x00, 0x00, 0x00, 0x00, 0x00, 0x00, 0x00,
  0x00, 0x00, 0x00, 0x00, 0x00, 0x00, 0x00, 0x00, 0x00, 0x00, 0x00, 0x00,
  0x00, 0x00, 0x00, 0x00, 0x00, 0x00, 0x00, 0x00, 0x00, 0x00, 0x00, 0x00,
  0x00, 0x00, 0x00, 0x00, 0x10, 0x00, 0x00, 0x00, 0x7b, 0xb4, 0xa1, 0x36,
  0x55, 0x23, 0xfb, 0x36, 0xec, 0x4f, 0x11, 0x37, 0xcb, 0x9c, 0x63, 0x37,
  0x92, 0xa0, 0x1a, 0x37, 0x65, 0x7d, 0x98, 0x36, 0x2e, 0xf1, 0x98, 0x36,
  0x33, 0xbe, 0xcb, 0x36, 0x75, 0x9c, 0x01, 0x37, 0xea, 0x76, 0xe9, 0x36,
  0xe0, 0x4c, 0xc4, 0x36, 0xb0, 0x9c, 0xad, 0x36, 0x68, 0x4d, 0x59, 0x37,
  0xc5, 0x68, 0x99, 0x36, 0xe6, 0x35, 0xa7, 0x36, 0xea, 0xd3, 0xa1, 0x36,
  0x12, 0x00, 0x00, 0x00, 0x74, 0x66, 0x6c, 0x2e, 0x70, 0x73, 0x65, 0x75,
  0x64, 0x6f, 0x5f, 0x71, 0x63, 0x6f, 0x6e, 0x73, 0x74, 0x32, 0x00, 0x00,
  0x01, 0x00, 0x00, 0x00, 0x10, 0x00, 0x00, 0x00, 0x42, 0xfe, 0xff, 0xff,
  0x00, 0x00, 0x00, 0x01, 0x14, 0x00, 0x00, 0x00, 0x58, 0x00, 0x00, 0x00,
  0x07, 0x00, 0x00, 0x00, 0x00, 0x00, 0x00, 0x09, 0x64, 0x00, 0x00, 0x00,
  0xc4, 0xfd, 0xff, 0xff, 0x08, 0x00, 0x00, 0x00, 0x2c, 0x00, 0x00, 0x00,
  0x04, 0x00, 0x00, 0x00, 0x00, 0x00, 0x00, 0x00, 0x00, 0x00, 0x00, 0x00,
  0x00, 0x00, 0x00, 0x00, 0x00, 0x00, 0x00, 0x00, 0x00, 0x00, 0x00, 0x00,
  0x00, 0x00, 0x00, 0x00, 0x00, 0x00, 0x00, 0x00, 0x00, 0x00, 0x00, 0x00,
  0x00, 0x00, 0x00, 0x00, 0x04, 0x00, 0x00, 0x00, 0x69, 0xd3, 0x84, 0x3b,
  0x3b, 0xf0, 0x8b, 0x3b, 0x4c, 0xb4, 0x72, 0x3b, 0xc5, 0xdf, 0x96, 0x3b,
  0x12, 0x00, 0x00, 0x00, 0x74, 0x66, 0x6c, 0x2e, 0x70, 0x73, 0x65, 0x75,
  0x64, 0x6f, 0x5f, 0x71, 0x63, 0x6f, 0x6e, 0x73, 0x74, 0x31, 0x00, 0x00,
  0x02, 0x00, 0x00, 0x00, 0x04, 0x00, 0x00, 0x00, 0x10, 0x00, 0x00, 0x00,
  0xca, 0xfe, 0xff, 0xff, 0x00, 0x00, 0x00, 0x01, 0x14, 0x00, 0x00, 0x00,
  0x58, 0x00, 0x00, 0x00, 0x06, 0x00, 0x00, 0x00, 0x00, 0x00, 0x00, 0x02,
  0x64, 0x00, 0x00, 0x00, 0x4c, 0xfe, 0xff, 0xff, 0x08, 0x00, 0x00, 0x00,
  0x2c, 0x00, 0x00, 0x00, 0x04, 0x00, 0x00, 0x00, 0x00, 0x00, 0x00, 0x00,
  0x00, 0x00, 0x00, 0x00, 0x00, 0x00, 0x00, 0x00, 0x00, 0x00, 0x00, 0x00,
  0x00, 0x00, 0x00, 0x00, 0x00, 0x00, 0x00, 0x00, 0x00, 0x00, 0x00, 0x00,
  0x00, 0x00, 0x00, 0x00, 0x00, 0x00, 0x00, 0x00, 0x04, 0x00, 0x00, 0x00,
  0x97, 0x6f, 0xb9, 0x37, 0x9c, 0x5d, 0xc3, 0x37, 0xee, 0x6a, 0xa9, 0x37,
  0xff, 0xa1, 0xd2, 0x37, 0x11, 0x00, 0x00, 0x00, 0x74, 0x66, 0x6c, 0x2e,
  0x70, 0x73, 0x65, 0x75, 0x64, 0x6f, 0x5f, 0x71, 0x63, 0x6f, 0x6e, 0x73,
  0x74, 0x00, 0x00, 0x00, 0x01, 0x00, 0x00, 0x00, 0x04, 0x00, 0x00, 0x00,
  0x4e, 0xff, 0xff, 0xff, 0x00, 0x00, 0x00, 0x01, 0x14, 0x00, 0x00, 0x00,
  0x14, 0x00, 0x00, 0x00, 0x05, 0x00, 0x00, 0x00, 0x00, 0x00, 0x00, 0x02,
  0x1c, 0x00, 0x00, 0x00, 0x38, 0xff, 0xff, 0xff, 0x0f, 0x00, 0x00, 0x00,
  0x61, 0x72, 0x69, 0x74, 0x68, 0x2e, 0x63, 0x6f, 0x6e, 0x73, 0x74, 0x61,
  0x6e, 0x74, 0x33, 0x00, 0x01, 0x00, 0x00, 0x00, 0x02, 0x00, 0x00, 0x00,
  0x8a, 0xff, 0xff, 0xff, 0x00, 0x00, 0x00, 0x01, 0x14, 0x00, 0x00, 0x00,
  0x14, 0x00, 0x00, 0x00, 0x04, 0x00, 0x00, 0x00, 0x00, 0x00, 0x00, 0x02,
  0x1c, 0x00, 0x00, 0x00, 0x74, 0xff, 0xff, 0xff, 0x0f, 0x00, 0x00, 0x00,
  0x61, 0x72, 0x69, 0x74, 0x68, 0x2e, 0x63, 0x6f, 0x6e, 0x73, 0x74, 0x61,
  0x6e, 0x74, 0x32, 0x00, 0x00, 0x00, 0x00, 0x00, 0xc2, 0xff, 0xff, 0xff,
  0x00, 0x00, 0x00, 0x01, 0x14, 0x00, 0x00, 0x00, 0x14, 0x00, 0x00, 0x00,
  0x03, 0x00, 0x00, 0x00, 0x00, 0x00, 0x00, 0x02, 0x1c, 0x00, 0x00, 0x00,
  0xac, 0xff, 0xff, 0xff, 0x0f, 0x00, 0x00, 0x00, 0x61, 0x72, 0x69, 0x74,
  0x68, 0x2e, 0x63, 0x6f, 0x6e, 0x73, 0x74, 0x61, 0x6e, 0x74, 0x31, 0x00,
  0x01, 0x00, 0x00, 0x00, 0x03, 0x00, 0x00, 0x00, 0x00, 0x00, 0x16, 0x00,
  0x1c, 0x00, 0x18, 0x00, 0x17, 0x00, 0x10, 0x00, 0x0c, 0x00, 0x08, 0x00,
  0x00, 0x00, 0x00, 0x00, 0x00, 0x00, 0x07, 0x00, 0x16, 0x00, 0x00, 0x00,
  0x00, 0x00, 0x00, 0x01, 0x18, 0x00, 0x00, 0x00, 0x18, 0x00, 0x00, 0x00,
  0x02, 0x00, 0x00, 0x00, 0x00, 0x00, 0x00, 0x02, 0x20, 0x00, 0x00, 0x00,
  0x04, 0x00, 0x04, 0x00, 0x04, 0x00, 0x00, 0x00, 0x0e, 0x00, 0x00, 0x00,
  0x61, 0x72, 0x69, 0x74, 0x68, 0x2e, 0x63, 0x6f, 0x6e, 0x73, 0x74, 0x61,
  0x6e, 0x74, 0x00, 0x00, 0x00, 0x00, 0x00, 0x00, 0x00, 0x00, 0x16, 0x00,
  0x20, 0x00, 0x1c, 0x00, 0x1b, 0x00, 0x14, 0x00, 0x10, 0x00, 0x0c, 0x00,
  0x00, 0x00, 0x00, 0x00, 0x08, 0x00, 0x07, 0x00, 0x16, 0x00, 0x00, 0x00,
  0x00, 0x00, 0x00, 0x01, 0x18, 0x00, 0x00, 0x00, 0x30, 0x00, 0x00, 0x00,
  0x4c, 0x00, 0x00, 0x00, 0x01, 0x00, 0x00, 0x00, 0x00, 0x00, 0x00, 0x09,
  0x68, 0x00, 0x00, 0x00, 0x03, 0x00, 0x00, 0x00, 0xff, 0xff, 0xff, 0xff,
  0x0f, 0x00, 0x00, 0x00, 0x04, 0x00, 0x00, 0x00, 0x0c, 0x00, 0x0c, 0x00,
  0x00, 0x00, 0x00, 0x00, 0x08, 0x00, 0x04, 0x00, 0x0c, 0x00, 0x00, 0x00,
  0x08, 0x00, 0x00, 0x00, 0x10, 0x00, 0x00, 0x00, 0x01, 0x00, 0x00, 0x00,
  0x80, 0xff, 0xff, 0xff, 0xff, 0xff, 0xff, 0xff, 0x01, 0x00, 0x00, 0x00,
  0x98, 0xe0, 0x78, 0x3b, 0x21, 0x00, 0x00, 0x00, 0x73, 0x65, 0x72, 0x76,
  0x69, 0x6e, 0x67, 0x5f, 0x64, 0x65, 0x66, 0x61, 0x75, 0x6c, 0x74, 0x5f,
  0x6b, 0x65, 0x72, 0x61, 0x73, 0x5f, 0x74, 0x65, 0x6e, 0x73, 0x6f, 0x72,
  0x5f, 0x33, 0x30, 0x3a, 0x30, 0x00, 0x00, 0x00, 0x03, 0x00, 0x00, 0x00,
  0x01, 0x00, 0x00, 0x00, 0x0f, 0x00, 0x00, 0x00, 0x04, 0x00, 0x00, 0x00,
  0x05, 0x00, 0x00, 0x00, 0x68, 0x00, 0x00, 0x00, 0x48, 0x00, 0x00, 0x00,
  0x2c, 0x00, 0x00, 0x00, 0x18, 0x00, 0x00, 0x00, 0x04, 0x00, 0x00, 0x00,
  0xd4, 0xff, 0xff, 0xff, 0x09, 0x00, 0x00, 0x00, 0x04, 0x00, 0x00, 0x00,
  0x00, 0x00, 0x00, 0x09, 0xe4, 0xff, 0xff, 0xff, 0x11, 0x00, 0x00, 0x00,
  0x02, 0x00, 0x00, 0x00, 0x00, 0x00, 0x00, 0x11, 0xd8, 0xff, 0xff, 0xff,
  0x16, 0x00, 0x00, 0x00, 0x00, 0x00, 0x00, 0x16, 0x0c, 0x00, 0x10, 0x00,
  0x0f, 0x00, 0x00, 0x00, 0x08, 0x00, 0x04, 0x00, 0x0c, 0x00, 0x00, 0x00,
  0x03, 0x00, 0x00, 0x00, 0x03, 0x00, 0x00, 0x00, 0x00, 0x00, 0x00, 0x03,
  0x0c, 0x00, 0x0c, 0x00, 0x0b, 0x00, 0x00, 0x00, 0x00, 0x00, 0x04, 0x00,
  0x0c, 0x00, 0x00, 0x00, 0x46, 0x00, 0x00, 0x00, 0x00, 0x00, 0x00, 0x46
};

const int g_model_len = sizeof(g_model);